; Combined BRAM — all layers
memory_initialization_radix=10;
memory_initialization_vector=
217, 146, 92, 60, 92, 149, 210, 213, 94, 51, 18, 24, 172, 119, 250, 49, 1, 209, 92, 115, 59, 2, 247, 60, 203, 12, 164, 254, 226, 47, 254, 16, 134, 14, 115, 250, 56, 62, 96, 206, 85, 84, 4, 34, 57, 79, 52, 75, 45, 133, 165, 26, 225, 200, 43, 226, 151, 166, 212, 3, 35, 48, 212, 31, 155, 236, 151, 57, 62, 226, 25, 194, 158, 178, 173, 132, 93, 17, 22, 177, 190, 179, 156, 17, 254, 35, 166, 97, 157, 253, 149, 6, 31, 187, 36, 51, 253, 119, 3, 117, 208, 231, 31, 182, 170, 172, 154, 207, 89, 150, 89, 50, 150, 156, 14, 91, 167, 213, 4, 250, 35, 221, 164, 13, 231, 5, 94, 89, 64, 41, 69, 218, 243, 17, 154, 40, 164, 163, 16, 55, 216, 163, 158, 184, 202, 169, 204, 194, 38, 158, 39, 62, 167, 205, 154, 226, 222, 138, 88, 214, 93, 30, 168, 192, 158, 207, 171, 192, 24, 236, 174, 223, 113, 76, 71, 96, 230, 150, 75, 94, 3, 158, 162, 79, 157, 166, 103, 194, 228, 224, 216, 252, 191, 112, 163, 90, 185, 184, 186, 167, 33, 53, 235, 187, 164, 92, 183, 103, 125, 10, 80, 170, 159, 75, 170, 252, 27, 216, 150, 9, 83, 135, 247, 254, 183, 97, 37, 87, 183, 94, 80, 42, 95, 252, 101, 213, 0, 57, 74, 215, 249, 236, 163, 41, 163, 19, 11, 144, 210, 100, 188, 85, 130, 252, 28, 207, 76, 178, 193, 4, 180, 41, 92, 52, 47, 18, 169, 194, 4, 90, 169, 9, 30, 250, 95, 216, 29, 57, 200, 228, 200, 66, 153, 138, 115, 76, 103, 23, 251, 26, 246, 2, 63, 31, 212, 59, 58, 251, 85, 190, 6, 227, 59, 236, 209, 233, 42, 56, 49, 73, 221, 8, 45, 94, 160, 169, 151, 160, 245, 63, 50, 147, 229, 92, 48, 4, 100, 203, 74, 236, 82, 15, 63, 37, 24, 67, 163, 2, 49, 86, 154, 213, 56, 208, 120, 148, 62, 63, 168, 207, 242, 236, 82, 61, 226, 10, 43, 82, 112, 51, 229, 56, 63, 108, 197, 186, 15, 255, 245, 111, 247, 161, 118, 154, 110, 117, 47, 107, 80, 15, 33, 226, 45, 63, 170, 107, 11, 214, 213, 21, 14, 66, 180, 87, 106, 71, 163, 37, 21, 32, 39, 31, 39, 174, 161, 232, 144, 206, 66, 119, 212, 95, 68, 31, 34, 210, 207, 187, 5, 221, 138, 166, 210, 22, 143, 74, 193, 252, 203, 15, 228, 41, 36, 169, 81, 67, 183, 214, 17, 65, 82, 141, 189, 207, 207, 249, 248, 67, 9, 237, 52, 84, 45, 11, 31, 243, 70, 34, 7, 48, 241, 219, 3, 121, 151, 93, 47, 54, 27, 187, 18, 109, 99, 79, 21, 68, 180, 254, 71, 57, 235, 238, 197, 19, 153, 75, 69, 146, 104, 177, 34, 38, 69, 197, 228, 197, 183, 166, 250, 196, 233, 185, 28, 136, 223, 146, 40, 186, 17, 42, 170, 222, 61, 72, 191, 181, 208, 214, 201, 14, 174, 186, 12, 58, 171, 83, 235, 107, 224, 197, 21, 155, 26, 60, 131, 155, 165, 53, 27, 149, 146, 180, 246, 205, 201, 216, 76, 173, 143, 216, 172, 39, 255, 151, 169, 122, 65, 229, 170, 211, 142, 49, 86, 163, 103, 73, 157, 174, 10, 167, 241, 15, 163, 167, 213, 64, 147, 31, 17, 149, 108, 94, 96, 225, 107, 236, 79, 207, 175, 111, 101, 113, 174, 80, 78, 16, 61, 226, 35, 76, 218, 228, 210, 148, 61, 55, 28, 30, 21, 109, 153, 240, 230, 35, 248, 11, 63, 44, 9, 22, 203, 37, 22, 149, 182, 41, 27, 9, 176, 174, 15, 212, 213, 177, 222, 206, 234, 40, 193, 68, 173, 164, 224, 151, 14, 49, 208, 253, 1, 72, 117, 12, 233, 237, 30, 108, 48, 101, 189, 71, 61, 153, 199, 239, 210, 105, 34, 197, 97, 106, 106, 49, 185, 65, 203, 104, 75, 238, 213, 239, 17, 161, 60, 223, 107, 232, 238, 217, 81, 40, 137, 42, 17, 180, 192, 162, 168, 0, 67, 23, 159, 153, 106, 93, 223, 13, 203, 117, 181, 253, 64, 228, 88, 245, 182, 202, 46, 90, 24, 111, 115, 103, 38, 199, 112, 87, 246, 84, 153, 220, 226, 86, 108, 225, 95, 210, 160, 56, 90, 186, 202, 17, 189, 8, 33, 95, 222, 110, 196, 107, 36, 242, 51, 36, 164, 73, 182, 43, 140, 1, 68, 110, 148, 78, 49, 22, 67, 30, 249, 75, 50, 42, 172, 147, 180, 241, 67, 185, 217, 147, 163, 186, 235, 185, 79, 131, 114, 184, 30, 161, 155, 255, 20, 249, 103, 242, 119, 38, 14, 217, 148, 161, 252, 250, 236, 4, 50, 136, 247, 229, 215, 247, 208, 194, 60, 174, 253, 181, 99, 102, 90, 170, 9, 94, 94, 73, 57, 5, 228, 32, 213, 76, 193, 119, 33, 251, 23, 229, 240, 114, 120, 187, 100, 184, 103, 47, 153, 68, 196, 28, 77, 243, 228, 150, 207, 164, 36, 242, 155, 154, 97, 28, 205, 51, 73, 249, 98, 154, 157, 19, 36, 215, 70, 249, 173, 85, 11, 13, 119, 53, 232, 149, 16, 109, 195, 104, 236, 204, 254, 188, 153, 83, 97, 52, 59, 163, 75, 173, 38, 233, 98, 230, 207, 243, 164, 130, 107, 231, 150, 201, 191, 210, 25, 65, 245, 6, 55, 235, 14, 184, 172, 94, 180, 165, 97, 59, 17, 254, 81, 135, 214, 245, 239, 162, 97, 138, 163, 222, 52, 198, 115, 178, 251, 225, 166, 104, 181, 23, 51, 250, 103, 162, 29, 47, 26, 112, 114, 190, 109, 246, 110, 115, 226, 219, 83, 240, 194, 224, 202, 64, 30, 124, 201, 42, 26, 77, 169, 174, 52, 29, 232, 104, 31, 227, 65, 227, 144, 61, 141, 17, 18, 206, 8, 144, 63, 219, 66, 48, 232, 174, 167, 240, 241, 98, 43, 87, 49, 111, 219, 54, 56, 190, 229, 19, 65, 73, 148, 227, 48, 252, 34, 185, 1, 21, 201, 170, 55, 192, 125, 21, 167, 176, 48, 215, 34, 150, 121, 195, 164, 19, 71, 71, 73, 219, 103, 250, 67, 212, 225, 50, 242, 2, 52, 177, 186, 63, 17, 254, 47, 102, 105, 21, 227, 112, 99, 52, 168, 166, 73, 202, 71, 95, 238, 27, 80, 156, 206, 152, 248, 32, 48, 158, 170, 160, 174, 169, 97, 27, 144, 236, 195, 219, 17, 169, 38, 42, 52, 174, 0, 120, 18, 155, 24, 33, 136, 216, 243, 39, 9, 103, 4, 68, 189, 185, 64, 135, 8, 130, 168, 5, 202, 104, 93, 43, 9, 228, 211, 18, 163, 212, 221, 114, 62, 173, 233, 183, 252, 67, 143, 107, 222, 198, 0, 78, 211, 130, 229, 140, 197, 226, 76, 177, 72, 59, 140, 232, 101, 26, 139, 35, 158, 230, 11, 168, 244, 41, 237, 38, 13, 107, 141, 113, 240, 60, 159, 225, 164, 63, 29, 52, 45, 235, 36, 161, 60, 41, 141, 61, 199, 222, 65, 254, 141, 49, 33, 103, 18, 68, 23, 145, 26, 233, 172, 2, 101, 91, 87, 62, 227, 138, 54, 237, 188, 103, 134, 188, 193, 18, 172, 230, 239, 177, 193, 235, 203, 170, 68, 78, 254, 175, 231, 122, 80, 219, 255, 95, 48, 118, 65, 42, 3, 152, 62, 3, 207, 241, 177, 238, 14, 187, 102, 85, 39, 230, 171, 162, 32, 154, 154, 87, 216, 77, 56, 241, 47, 15, 105, 57, 46, 189, 77, 249, 203, 247, 250, 117, 167, 19, 10, 219, 90, 186, 19, 99, 28, 81, 189, 81, 80, 194, 22, 82, 54, 203, 180, 150, 15, 99, 112, 169, 73, 144, 169, 34, 200, 201, 117, 21, 172, 42, 150, 182, 197, 144, 173, 38, 42, 17, 216, 27, 191, 83, 23, 215, 31, 228, 230, 188, 249, 4, 71, 91, 88, 208, 225, 24, 142, 79, 150, 4, 12, 68, 25, 214, 210, 110, 159, 198, 246, 70, 184, 9, 191, 183, 76, 91, 186, 234, 138, 229, 157, 153, 53, 158, 2, 78, 234, 148, 227, 223, 186, 105, 134, 242, 8, 169, 64, 76, 92, 101, 19, 200, 180, 3, 39, 228, 173, 76, 187, 204, 246, 33, 43, 29, 7, 21, 198, 11, 23, 200, 174, 97, 64, 31, 185, 47, 42, 168, 66, 238, 237, 209, 48, 52, 160, 252, 157, 116, 169, 246, 54, 98, 209, 52, 62, 160, 223, 250, 145, 38, 27, 239, 86, 176, 111, 163, 193, 145, 85, 250, 23, 27, 71, 74, 62, 80, 42, 3, 57, 52, 145, 141, 183, 255, 187, 176, 137, 194, 106, 140, 38, 27, 86, 136, 150, 83, 224, 32, 70, 10, 156, 79, 181, 19, 2, 181, 27, 220, 99, 157, 215, 78, 204, 242, 171, 247, 79, 36, 13, 46, 78, 174, 183, 222, 6, 145, 210, 252, 162, 214, 181, 94, 179, 198, 233, 110, 122, 89, 204, 34, 180, 17, 197, 53, 32, 162, 150, 149, 96, 61, 66, 58, 211, 216, 78, 193, 98, 56, 229, 83, 30, 199, 255, 173, 138, 20, 90, 19, 198, 115, 207, 21, 222, 40, 209, 25, 252, 14, 133, 73, 250, 113, 198, 80, 135, 175, 34, 65, 25, 215, 102, 178, 172, 96, 202, 43, 0, 182, 50, 26, 77, 45, 199, 68, 172, 156, 12, 184, 90, 192, 197, 171, 27, 178, 145, 113, 95, 190, 187, 9, 64, 125, 49, 249, 87, 41, 152, 43, 15, 169, 43, 50, 39, 194, 15, 66, 204, 159, 78, 90, 10, 143, 202, 213, 79, 185, 90, 58, 198, 56, 29, 60, 200, 225, 71, 136, 182, 67, 42, 190, 88, 96, 7, 51, 48, 34, 43, 69, 16, 193, 143, 66, 33, 47, 110, 68, 225, 220, 16, 143, 29, 207, 50, 116, 239, 2, 198, 77, 67, 83, 253, 158, 25, 81, 99, 165, 189, 222, 118, 156, 196, 176, 239, 135, 150, 138, 6, 34, 178, 242, 247, 138, 38, 242, 94, 81, 160, 3, 25, 238, 204, 37, 190, 35, 228, 61, 241, 99, 42, 1, 100, 112, 250, 169, 162, 225, 143, 181, 104, 154, 3, 199, 36, 163, 233, 155, 60, 219, 44, 113, 71, 118, 250, 179, 144, 15, 151, 106, 152, 2, 49, 200, 154, 15, 56, 173, 207, 49, 135, 240, 209, 96, 231, 215, 43, 37, 226, 113, 19, 84, 224, 19, 160, 178, 133, 160, 52, 81, 238, 160, 39, 241, 245, 198, 255, 184, 225, 10, 112, 208, 78, 145, 230, 246, 80, 76, 238, 242, 202, 220, 248, 142, 100, 192, 103, 198, 83, 237, 186, 214, 214, 185, 63, 33, 215, 89, 88, 5, 42, 240, 44, 236, 82, 175, 192, 84, 11, 205, 130, 32, 32, 72, 106, 43, 41, 53, 185, 12, 254, 216, 145, 121, 46, 200, 212, 200, 15, 155, 231, 142, 139, 198, 230, 184, 57, 207, 24, 108, 242, 57, 231, 175, 216, 32, 189, 52, 112, 172, 45, 121, 179, 217, 187, 64, 19, 4, 224, 193, 94, 203, 41, 215, 157, 216, 218, 22, 48, 36, 163, 165, 88, 98, 147, 168, 231, 36, 222, 48, 95, 253, 25, 46, 104, 204, 175, 112, 35, 160, 162, 95, 153, 182, 94, 76, 148, 162, 190, 144, 178, 230, 66, 65, 130, 220, 167, 208, 152, 168, 101, 215, 15, 189, 73, 212, 192, 125, 176, 181, 97, 208, 75, 103, 149, 29, 230, 37, 98, 48, 112, 52, 154, 118, 202, 185, 178, 48, 56, 184, 187, 41, 109, 118, 222, 22, 99, 98, 161, 117, 44, 148, 165, 166, 40, 239, 218, 79, 247, 231, 211, 66, 241, 61, 82, 179, 99, 67, 107, 160, 89, 76, 232, 58, 159, 84, 88, 237, 13, 185, 230, 247, 246, 248, 166, 121, 62, 219, 216, 97, 93, 48, 218, 217, 90, 28, 75, 203, 81, 235, 205, 89, 2, 17, 16, 236, 205, 190, 209, 23, 40, 236, 60, 6, 214, 239, 82, 255, 141, 244, 12, 173, 74, 90, 92, 31, 7, 197, 223, 183, 247, 38, 71, 100, 22, 111, 0, 102, 71, 182, 132, 159, 240, 6, 245, 72, 242, 6, 66, 4, 114, 178, 210, 90, 213, 47, 94, 187, 214, 95, 26, 66, 76, 76, 10, 26, 111, 196, 157, 168, 69, 229, 248, 65, 6, 22, 195, 197, 172, 106, 21, 152, 237, 151, 241, 68, 240, 63, 150, 150, 73, 70, 105, 178, 141, 231, 83, 31, 179, 67, 2, 247, 30, 219, 167, 44, 220, 213, 73, 12, 85, 153, 184, 106, 93, 210, 200, 170, 34, 38, 94, 8, 167, 251, 107, 239, 181, 150, 175, 251, 248, 222, 29, 88, 194, 230, 223, 152, 6, 32, 104, 42, 114, 89, 217, 95, 192, 61, 100, 173, 239, 57, 173, 192, 48, 53, 87, 115, 192, 249, 181, 192, 8, 253, 89, 40, 177, 136, 22, 138, 89, 183, 236, 96, 203, 200, 23, 15, 196, 99, 3, 233, 165, 160, 163, 164, 106, 163, 48, 92, 175, 77, 50, 175, 173, 72, 209, 24, 217, 205, 208, 29, 48, 57, 81, 181, 13, 63, 72, 147, 250, 209, 20, 22, 60, 149, 110, 105, 190, 14, 203, 33, 249, 224, 225, 17, 1, 148, 102, 137, 64, 75, 118, 210, 93, 141, 66, 145, 226, 238, 127, 5, 7, 105, 170, 61, 183, 214, 48, 60, 9, 210, 10, 193, 114, 32, 231, 213, 203, 207, 91, 51, 47, 16, 46, 112, 171, 95, 199, 15, 16, 252, 105, 205, 74, 37, 6, 182, 2, 14, 79, 211, 214, 4, 209, 63, 246, 221, 44, 194, 235, 38, 231, 26, 59, 252, 182, 122, 76, 229, 40, 205, 165, 217, 165, 25, 112, 174, 227, 104, 202, 124, 218, 168, 165, 53, 115, 239, 255, 198, 105, 205, 33, 102, 122, 67, 164, 0, 72, 237, 249, 76, 49, 75, 6, 244, 163, 202, 233, 20, 88, 170, 88, 223, 25, 103, 29, 7, 114, 105, 55, 107, 111, 54, 219, 234, 255, 186, 152, 73, 4, 250, 48, 65, 38, 16, 252, 73, 242, 103, 111, 231, 105, 53, 93, 184, 191, 226, 208, 76, 230, 102, 74, 94, 24, 169, 9, 65, 30, 56, 204, 247, 96, 78, 166, 178, 191, 70, 169, 163, 50, 22, 40, 56, 12, 39, 30, 209, 207, 121, 155, 152, 157, 48, 204, 242, 176, 72, 17, 6, 207, 28, 21, 213, 171, 103, 9, 235, 61, 84, 1, 172, 80, 71, 195, 108, 39, 153, 226, 207, 0, 132, 9, 51, 179, 67, 195, 9, 153, 199, 148, 44, 245, 153, 39, 4, 150, 26, 198, 248, 249, 85, 202, 255, 121, 36, 79, 34, 219, 195, 148, 184, 80, 65, 210, 63, 163, 119, 227, 80, 148, 95, 221, 182, 65, 168, 188, 2, 187, 244, 30, 3, 174, 41, 44, 176, 1, 194, 93, 180, 249, 175, 59, 174, 169, 150, 70, 243, 217, 18, 153, 252, 250, 173, 103, 201, 153, 168, 58, 168, 232, 143, 167, 211, 191, 29, 75, 223, 7, 2, 99, 216, 159, 50, 119, 152, 253, 74, 60, 22, 227, 157, 102, 79, 126, 209, 37, 17, 117, 243, 188, 230, 64, 83, 71, 157, 180, 90, 118, 92, 232, 193, 98, 131, 46, 226, 185, 27, 247, 86, 62, 232, 31, 234, 56, 74, 50, 83, 216, 77, 92, 0, 241, 36, 124, 30, 56, 33, 135, 175, 162, 85, 166, 62, 145, 121, 86, 223, 0, 84, 164, 114, 106, 46, 77, 88, 109, 177, 55, 205, 59, 80, 60, 218, 3, 170, 56, 234, 251, 157, 146, 147, 156, 41, 164, 114, 226, 194, 99, 238, 227, 225, 205, 55, 44, 156, 30, 75, 76, 95, 54, 108, 26, 234, 235, 247, 69, 204, 255, 107, 224, 238, 6, 104, 213, 172, 140, 67, 162, 178, 150, 156, 80, 101, 194, 241, 207, 72, 64, 161, 22, 97, 88, 163, 95, 16, 165, 31, 21, 205, 75, 182, 142, 178, 31, 205, 79, 49, 177, 28, 159, 9, 43, 44, 126, 190, 110, 183, 32, 35, 50, 131, 200, 195, 188, 6, 248, 79, 55, 185, 98, 206, 207, 57, 127, 158, 158, 144, 82, 4, 127, 9, 95, 129, 93, 97, 192, 91, 11, 11, 126, 178, 106, 219, 125, 226, 9, 189, 98, 249, 203, 233, 198, 245, 19, 145, 58, 236, 191, 191, 9, 13, 114, 77, 29, 73, 19, 186, 38, 236, 210, 191, 12, 161, 170, 156, 178, 253, 28, 5, 69, 206, 229, 249, 9, 12, 154, 51, 195, 215, 229, 171, 139, 211, 232, 45, 223, 176, 64, 148, 225, 2, 3, 197, 101, 146, 164, 246, 241, 26, 38, 186, 22, 135, 63, 86, 186, 204, 228, 20, 70, 148, 247, 95, 251, 74, 243, 31, 87, 138, 75, 92, 225, 245, 163, 53, 171, 90, 3, 67, 67, 29, 69, 237, 39, 238, 63, 211, 19, 208, 151, 252, 33, 102, 43, 211, 157, 43, 44, 99, 178, 164, 186, 47, 210, 54, 219, 40, 204, 40, 246, 196, 31, 22, 180, 222, 38, 89, 46, 196, 240, 63, 12, 207, 5, 67, 38, 149, 141, 76, 161, 33, 93, 240, 135, 178, 136, 253, 107, 65, 225, 67, 225, 191, 3, 107, 189, 79, 102, 63, 185, 250, 179, 158, 163, 173, 12, 62, 16, 26, 54, 251, 234, 247, 72, 37, 164, 163, 230, 79, 250, 170, 150, 20, 43, 73, 43, 59, 170, 151, 174, 181, 177, 173, 64, 118, 40, 33, 4, 17, 198, 253, 41, 100, 216, 52, 96, 20, 129, 177, 66, 220, 57, 162, 185, 168, 16, 54, 34, 193, 21, 204, 229, 119, 137, 78, 172, 166, 180, 190, 84, 46, 95, 194, 4, 73, 80, 249, 167, 61, 245, 249, 225, 227, 196, 61, 5, 209, 140, 6, 28, 132, 204, 92, 79, 224, 221, 158, 167, 195, 136, 62, 180, 94, 170, 35, 169, 150, 33, 162, 146, 33, 229, 52, 229, 158, 250, 54, 231, 90, 201, 77, 41, 202, 33, 65, 160, 158, 1, 48, 35, 82, 212, 168, 2, 245, 17, 55, 203, 237, 52, 186, 94, 243, 61, 21, 172, 161, 246, 168, 160, 159, 152, 184, 43, 174, 173, 101, 177, 151, 40, 90, 155, 36, 20, 8, 169, 179, 3, 45, 10, 63, 98, 225, 174, 108, 20, 145, 171, 18, 79, 209, 176, 243, 99, 194, 198, 145, 182, 149, 14, 64, 91, 81, 159, 100, 44, 77, 144, 111, 154, 69, 149, 236, 13, 75, 175, 80, 2, 65, 54, 151, 77, 42, 212, 221, 217, 184, 185, 200, 250, 83, 134, 248, 197, 108, 173, 112, 9, 179, 70, 28, 236, 147, 176, 30, 73, 188, 169, 52, 92, 251, 171, 101, 185, 86, 83, 186, 184, 62, 234, 142, 219, 249, 161, 239, 70, 219, 188, 209, 37, 217, 53, 61, 17, 9, 32, 6, 249, 255, 248, 68, 91, 23, 0, 245, 247, 248, 246, 165, 10, 254, 139, 197, 145, 74, 212, 110, 0, 9, 28, 11, 226, 107, 194, 185, 52, 144, 68, 153, 6, 101, 192, 215, 11, 62, 206, 162, 202, 137, 65, 156, 144, 255, 53, 155, 30, 180, 58, 104, 196, 144, 103, 98, 60, 60, 70, 229, 216, 54, 65, 227, 8, 214, 93, 251, 234, 77, 251, 35, 179, 136, 96, 208, 230, 0, 206, 225, 222, 218, 40, 96, 245, 58, 149, 15, 173, 165, 156, 181, 239, 230, 19, 208, 95, 14, 12, 195, 44, 24, 8, 224, 240, 196, 98, 91, 250, 220, 46, 238, 59, 212, 0, 245, 224, 131, 80, 74, 60, 169, 68, 23, 87, 7, 66, 139, 246, 74, 11, 15, 236, 192, 174, 42, 41, 69, 11, 16, 103, 21, 0, 225, 65, 72, 111, 86, 71, 27, 152, 112, 78, 189, 106, 100, 232, 146, 27, 247, 169, 142, 171, 154, 48, 93, 135, 117, 146, 252, 138, 248, 166, 230, 75, 76, 213, 23, 90, 167, 153, 149, 237, 109, 232, 48, 186, 113, 182, 159, 26, 220, 9, 165, 58, 38, 170, 160, 19, 32, 154, 223, 23, 22, 60, 219, 171, 152, 62, 243, 11, 254, 184, 244, 223, 29, 212, 14, 202, 68, 27, 177, 28, 223, 190, 61, 19, 19, 185, 236, 228, 101, 174, 241, 158, 94, 156, 21, 41, 250, 95, 101, 47, 173, 188, 33, 243, 183, 81, 115, 9, 66, 52, 212, 4, 110, 67, 66, 187, 251, 95, 214, 51, 203, 63, 47, 153, 77, 40, 20, 29, 83, 167, 199, 113, 161, 20, 158, 239, 51, 183, 205, 192, 4, 84, 247, 19, 132, 83, 105, 89, 44, 184, 114, 20, 253, 16, 25, 101, 81, 215, 106, 219, 65, 109, 144, 93, 55, 232, 102, 166, 48, 116, 79, 121, 62, 19, 103, 223, 38, 230, 49, 195, 51, 244, 246, 162, 21, 25, 166, 106, 206, 166, 222, 250, 152, 13, 246, 29, 194, 109, 246, 213, 232, 246, 229, 210, 40, 111, 239, 63, 140, 189, 145, 185, 67, 37, 101, 221, 210, 193, 204, 123, 237, 238, 8, 242, 36, 38, 109, 86, 13, 220, 100, 144, 188, 24, 176, 217, 180, 27, 98, 0, 219, 19, 228, 41, 190, 108, 48, 19, 8, 206, 220, 29, 178, 55, 199, 150, 211, 169, 14, 90, 156, 200, 244, 37, 80, 207, 83, 239, 255, 204, 243, 216, 133, 83, 221, 175, 189, 72, 213, 234, 162, 198, 189, 50, 192, 91, 212, 237, 66, 138, 66, 149, 15, 189, 65, 225, 194, 236, 255, 61, 238, 135, 96, 42, 164, 54, 194, 251, 0, 212, 63, 153, 3, 33, 69, 160, 251, 64, 180, 63, 220, 38, 141, 66, 67, 28, 31, 159, 193, 48, 64, 255, 40, 46, 23, 164, 67, 243, 31, 158, 153, 17, 79, 55, 124, 184, 161, 162, 75, 25, 34, 170, 240, 31, 143, 219, 225, 251, 238, 14, 5, 100, 158, 201, 195, 112, 194, 191, 85, 59, 62, 167, 192, 118, 24, 169, 87, 21, 190, 181, 164, 5, 28, 64, 147, 234, 211, 173, 235, 201, 255, 72, 230, 186, 248, 173, 251, 161, 139, 234, 177, 192, 23, 41, 30, 195, 62, 249, 84, 64, 97, 145, 28, 225, 194, 151, 56, 219, 21, 98, 196, 211, 239, 28, 47, 200, 219, 200, 200, 1, 30, 216, 41, 117, 255, 235, 174, 155, 53, 52, 219, 203, 205, 178, 75, 69, 194, 253, 119, 9, 89, 42, 121, 81, 47, 221, 62, 108, 27, 228, 81, 153, 72, 27, 238, 166, 190, 84, 231, 241, 112, 180, 91, 146, 254, 145, 107, 65, 221, 137, 22, 47, 225, 97, 35, 221, 193, 102, 100, 187, 27, 89, 29, 135, 206, 67, 187, 255, 150, 107, 98, 192, 15, 34, 25, 200, 193, 89, 138, 186, 151, 72, 41, 62, 245, 39, 250, 221, 158, 42, 66, 66, 34, 11, 59, 215, 75, 104, 198, 116, 56, 158, 34, 64, 111, 148, 163, 218, 223, 32, 3, 247, 161, 253, 106, 41, 244, 179, 116, 20, 189, 140, 3, 177, 101, 223, 151, 1, 135, 254, 77, 31, 152, 164, 187, 145, 87, 39, 88, 171, 102, 255, 163, 152, 182, 3, 222, 226, 213, 156, 190, 115, 17, 229, 17, 154, 149, 99, 95, 29, 165, 231, 198, 196, 221, 109, 0, 201, 37, 171, 237, 98, 232, 154, 120, 69, 75, 174, 120, 32, 1, 88, 169, 221, 84, 236, 227, 91, 209, 241, 243, 217, 114, 49, 105, 233, 37, 127, 8, 212, 250, 92, 53, 19, 184, 79, 134, 170, 37, 156, 19, 78, 95, 84, 14, 248, 243, 209, 138, 224, 156, 2, 177, 186, 225, 234, 251, 166, 212, 85, 1, 121, 85, 35, 85, 110, 196, 20, 249, 175, 111, 35, 20, 191, 19, 173, 159, 213, 218, 190, 210, 216, 104, 175, 185, 108, 14, 155, 165, 163, 122, 4, 155, 60, 135, 43, 109, 51, 186, 236, 146, 196, 143, 100, 230, 165, 202, 59, 83, 44, 39, 50, 36, 36, 197, 168, 238, 219, 183, 40, 131, 68, 212, 174, 51, 58, 32, 220, 80, 80, 99, 222, 236, 159, 178, 41, 83, 18, 99, 223, 63, 101, 58, 204, 90, 24, 74, 57, 201, 111, 22, 95, 188, 177, 132, 235, 156, 249, 167, 187, 40, 105, 75, 49, 237, 79, 82, 156, 34, 82, 85, 66, 103, 74, 38, 252, 169, 156, 176, 195, 60, 172, 65, 6, 32, 110, 76, 35, 185, 202, 66, 197, 245, 59, 29, 100, 5, 16, 179, 98, 69, 8, 74, 142, 13, 82, 94, 134, 189, 253, 224, 185, 27, 78, 160, 168, 19, 200, 103, 215, 25, 205, 156, 84, 115, 68, 62, 9, 190, 205, 143, 142, 242, 80, 218, 222, 138, 247, 210, 204, 216, 64, 104, 155, 205, 43, 105, 60, 3, 139, 220, 223, 40, 234, 13, 34, 172, 155, 164, 131, 205, 96, 147, 213, 66, 236, 56, 46, 246, 137, 45, 36, 59, 176, 224, 216, 69, 254, 51, 94, 142, 48, 159, 66, 22, 254, 23, 63, 162, 166, 215, 117, 104, 238, 28, 160, 107, 12, 19, 51, 254, 215, 210, 29, 214, 207, 9, 183, 75, 157, 98, 254, 140, 67, 39, 72, 189, 28, 43, 14, 148, 81, 77, 171, 64, 203, 254, 209, 32, 192, 192, 93, 60, 32, 245, 196, 94, 133, 250, 203, 76, 249, 203, 56, 43, 205, 6, 242, 199, 95, 103, 4, 193, 13, 250, 31, 42, 93, 7, 97, 199, 152, 167, 33, 37, 97, 56, 235, 79, 117, 166, 76, 106, 36, 37, 64, 189, 20, 36, 192, 71, 29, 109, 39, 183, 70, 246, 88, 185, 221, 165, 182, 13, 16, 167, 159, 25, 199, 53, 153, 75, 93, 225, 131, 104, 201, 213, 84, 61, 77, 18, 81, 242, 220, 93, 179, 114, 71, 3, 65, 167, 249, 54, 235, 48, 75, 204, 83, 0, 242, 61, 45, 15, 224, 250, 185, 74, 58, 33, 154, 239, 82, 15, 174, 245, 118, 61, 11, 181, 225, 64, 231, 254, 226, 71, 2, 109, 31, 4, 225, 90, 194, 252, 53, 193, 83, 58, 184, 235, 58, 228, 166, 189, 45, 85, 238, 243, 212, 75, 66, 21, 192, 69, 72, 212, 214, 164, 190, 60, 242, 13, 50, 223, 99, 4, 211, 115, 15, 56, 104, 98, 223, 191, 183, 212, 159, 62, 53, 88, 213, 244, 64, 228, 215, 17, 202, 171, 9, 235, 167, 199, 102, 44, 144, 224, 174, 155, 168, 218, 99, 69, 60, 74, 21, 213, 36, 46, 253, 181, 119, 81, 27, 100, 240, 210, 53, 216, 225, 198, 65, 91, 48, 251, 55, 45, 146, 57, 183, 154, 59, 213, 66, 194, 237, 79, 172, 208, 176, 72, 195, 98, 4, 63, 226, 177, 229, 156, 44, 105, 23, 214, 93, 110, 254, 119, 229, 179, 172, 105, 184, 246, 111, 236, 234, 38, 12, 118, 191, 163, 23, 196, 99, 142, 78, 70, 218, 158, 84, 168, 201, 79, 240, 167, 205, 255, 9, 254, 235, 83, 1, 67, 16, 11, 156, 81, 8, 44, 154, 198, 187, 121, 35, 2, 77, 33, 188, 249, 245, 180, 248, 18, 0, 218, 35, 9, 106, 114, 105, 5, 183, 74, 73, 65, 181, 207, 22, 75, 4, 105, 249, 229, 181, 62, 14, 5, 32, 95, 46, 186, 24, 47, 153, 53, 213, 164, 93, 228, 100, 136, 15, 207, 157, 51, 83, 224, 255, 33, 70, 47, 22, 98, 40, 241, 151, 225, 27, 92, 174, 100, 6, 137, 213, 230, 229, 89, 217, 232, 150, 7, 147, 34, 231, 252, 67, 176, 1, 103, 188, 106, 96, 25, 44, 157, 4, 221, 3, 255, 14, 241, 181, 2, 16, 54, 166, 69, 94, 187, 211, 57, 27, 141, 245, 212, 219, 4, 158, 162, 24, 112, 24, 182, 185, 1, 225, 168, 255, 58, 221, 19, 181, 104, 41, 208, 216, 197, 50, 194, 96, 151, 239, 9, 235, 184, 73, 45, 51, 171, 91, 154, 174, 157, 169, 253, 211, 18, 209, 67, 157, 27, 246, 88, 227, 89, 205, 167, 71, 45, 180, 181, 224, 148, 252, 206, 37, 20, 34, 71, 62, 88, 184, 229, 217, 192, 78, 83, 60, 168, 81, 50, 5, 211, 237, 2, 59, 185, 19, 196, 15, 46, 163, 84, 32, 193, 187, 224, 104, 233, 9, 237, 116, 253, 208, 116, 226, 167, 161, 212, 186, 169, 32, 28, 173, 207, 253, 173, 42, 211, 97, 169, 105, 216, 221, 245, 82, 94, 185, 158, 185, 204, 101, 6, 43, 88, 215, 234, 255, 245, 253, 67, 166, 22, 6, 98, 220, 37, 218, 63, 254, 228, 172, 211, 165, 213, 13, 212, 162, 114, 155, 179, 162, 176, 181, 168, 96, 52, 85, 34, 161, 203, 53, 19, 183, 38, 220, 252, 191, 65, 223, 206, 105, 236, 154, 206, 17, 169, 46, 246, 35, 96, 53, 6, 124, 55, 199, 185, 211, 97, 169, 162, 29, 245, 53, 45, 7, 227, 22, 49, 198, 172, 243, 193, 228, 164, 39, 161, 199, 42, 244, 143, 41, 64, 28, 103, 179, 109, 103, 110, 38, 214, 180, 147, 190, 86, 10, 218, 81, 233, 243, 205, 248, 208, 22, 226, 211, 203, 165, 88, 87, 156, 9, 20, 91, 103, 219, 178, 92, 82, 215, 20, 170, 253, 47, 229, 194, 74, 152, 200, 173, 24, 213, 6, 235, 117, 54, 172, 164, 10, 54, 93, 195, 19, 167, 4, 11, 235, 4, 106, 246, 89, 174, 90, 42, 63, 98, 171, 45, 37, 2, 91, 79, 253, 136, 83, 154, 31, 207, 88, 247, 198, 156, 140, 199, 114, 172, 248, 10, 201, 103, 245, 51, 83, 108, 77, 51, 185, 24, 72, 169, 148, 199, 121, 228, 219, 204, 243, 230, 0, 103, 69, 114, 66, 28, 210, 66, 76, 160, 118, 176, 1, 78, 254, 226, 106, 25, 213, 147, 117, 6, 175, 237, 45, 81, 233, 65, 18, 172, 236, 92, 1, 114, 232, 237, 43, 100, 49, 130, 186, 235, 172, 19, 75, 106, 18, 237, 245, 47, 73, 237, 232, 48, 28, 11, 27, 71, 27, 250, 217, 21, 232, 26, 232, 220, 193, 72, 152, 253, 85, 63, 254, 59, 228, 27, 104, 32, 229, 59, 34, 32, 65, 75, 166, 75, 229, 74, 71, 77, 45, 15, 151, 60, 225, 16, 238, 109, 215, 238, 7, 157, 36, 16, 191, 46, 162, 43, 126, 187, 217, 91, 108, 209, 41, 33, 149, 69, 50, 191, 33, 4, 166, 151, 16, 92, 210, 36, 191, 2, 76, 250, 200, 93, 214, 156, 108, 207, 51, 157, 166, 237, 6, 83, 10, 18, 227, 89, 183, 207, 213, 168, 45, 151, 24, 208, 124, 238, 71, 93, 70, 28, 72, 91, 43, 226, 25, 159, 85, 226, 228, 85, 154, 36, 109, 61, 60, 156, 33, 213, 7, 215, 94, 16, 186, 65, 172, 202, 22, 81, 66, 250, 50, 31, 70, 178, 30, 112, 234, 96, 252, 81, 101, 106, 75, 31, 222, 12, 45, 18, 36, 173, 255, 193, 228, 82, 254, 67, 245, 108, 233, 232, 13, 168, 219, 184, 118, 107, 254, 64, 70, 22, 97, 209, 112, 162, 190, 86, 182, 183, 73, 183, 167, 206, 35, 176, 4, 100, 190, 42, 103, 107, 166, 23, 120, 93, 15, 208, 185, 183, 241, 5, 104, 231, 142, 205, 22, 104, 95, 177, 217, 16, 227, 207, 54, 240, 30, 132, 18, 89, 173, 141, 210, 162, 5, 189, 65, 174, 185, 3, 62, 197, 86, 210, 67, 188, 9, 50, 153, 203, 226, 226, 70, 135, 90, 240, 230, 83, 11, 243, 155, 83, 35, 202, 33, 253, 141, 169, 190, 229, 164, 150, 146, 98, 151, 167, 71, 180, 155, 205, 167, 156, 69, 46, 40, 80, 222, 206, 84, 226, 167, 155, 241, 255, 36, 21, 93, 64, 107, 205, 240, 49, 218, 55, 201, 245, 215, 217, 232, 51, 80, 39, 161, 208, 72, 93, 69, 53, 184, 149, 5, 1, 210, 87, 91, 19, 203, 44, 84, 15, 74, 194, 80, 67, 100, 80, 241, 0, 159, 184, 45, 73, 186, 80, 211, 204, 207, 187, 96, 243, 64, 230, 71, 168, 207, 46, 21, 95, 46, 27, 100, 194, 77, 106, 227, 172, 54, 157, 175, 86, 235, 12, 46, 50, 19, 96, 115, 244, 34, 109, 85, 194, 239, 124, 85, 153, 189, 191, 164, 64, 11, 217, 181, 208, 164, 238, 55, 59, 241, 197, 85, 95, 115, 25, 1, 4, 61, 50, 111, 28, 35, 25, 234, 211, 94, 102, 243, 98, 29, 178, 222, 197, 240, 36, 71, 47, 86, 5, 254, 154, 42, 122, 106, 191, 46, 64, 109, 202, 119, 162, 54, 83, 196, 50, 122, 156, 155, 26, 225, 184, 48, 17, 221, 114, 179, 48, 220, 196, 254, 33, 219, 22, 178, 8, 70, 42, 203, 197, 169, 25, 98, 79, 190, 144, 74, 190, 8, 4, 158, 89, 109, 0, 215, 246, 160, 38, 122, 64, 212, 89, 251, 206, 96, 212, 153, 144, 213, 26, 166, 111, 96, 78, 10, 49, 82, 224, 214, 143, 201, 242, 177, 50, 84, 87, 83, 193, 89, 48, 26, 67, 229, 106, 234, 162, 142, 33, 114, 247, 155, 0, 39, 218, 226, 237, 199, 250, 185, 91, 39, 148, 65, 153, 24, 109, 202, 192, 203, 195, 153, 62, 166, 137, 179, 133, 81, 61, 54, 189, 244, 144, 143, 250, 51, 238, 10, 235, 4, 224, 249, 159, 168, 91, 224, 29, 221, 169, 169, 236, 139, 54, 215, 125, 74, 76, 121, 86, 85, 234, 89, 234, 177, 13, 215, 84, 77, 32, 182, 211, 252, 202, 94, 175, 170, 207, 52, 93, 3, 20, 197, 226, 243, 232, 198, 156, 106, 207, 100, 38, 78, 94, 239, 97, 247, 179, 220, 72, 211, 162, 39, 237, 215, 207, 244, 3, 104, 180, 231, 77, 251, 178, 158, 68, 31, 155, 199, 176, 81, 150, 188, 102, 1, 19, 69, 70, 17, 114, 48, 65, 56, 110, 166, 76, 196, 101, 55, 206, 42, 159, 236, 93, 57, 244, 13, 163, 10, 15, 162, 55, 223, 219, 163, 232, 65, 158, 253, 81, 71, 46, 39, 63, 72, 252, 21, 235, 62, 38, 137, 81, 96, 224, 238, 238, 166, 180, 72, 79, 162, 117, 76, 237, 245, 77, 217, 86, 239, 89, 68, 235, 239, 153, 24, 253, 81, 33, 186, 52, 25, 92, 219, 156, 92, 36, 77, 230, 227, 14, 78, 99, 114, 105, 206, 74, 253, 233, 166, 44, 24, 19, 55, 181, 57, 143, 168, 60, 107, 216, 110, 36, 82, 64, 201, 219, 30, 22, 1, 4, 100, 1, 19, 215, 39, 86, 30, 60, 252, 81, 68, 10, 102, 63, 255, 194, 216, 240, 221, 39, 59, 210, 251, 63, 247, 92, 223, 98, 40, 31, 61, 233, 219, 84, 20, 78, 12, 79, 142, 192, 23, 23, 47, 194, 174, 95, 225, 60, 97, 211, 13, 74, 114, 251, 90, 105, 237, 204, 108, 172, 79, 116, 32, 231, 58, 206, 246, 247, 52, 164, 76, 208, 27, 28, 95, 110, 215, 237, 218, 97, 120, 231, 159, 22, 191, 0, 39, 5, 46, 80, 52, 221, 139, 16, 207, 97, 100, 174, 61, 184, 142, 7, 200, 80, 161, 16, 25, 190, 79, 42, 242, 61, 208, 45, 58, 190, 10, 72, 16, 181, 18, 170, 97, 115, 147, 16, 166, 89, 58, 188, 218, 57, 152, 180, 254, 4, 81, 190, 211, 212, 176, 111, 25, 15, 179, 49, 17, 82, 11, 96, 21, 252, 187, 18, 172, 157, 23, 205, 176, 6, 96, 219, 254, 89, 107, 99, 239, 83, 94, 132, 5, 84, 202, 103, 205, 160, 189, 161, 239, 76, 190, 39, 220, 233, 195, 79, 71, 88, 222, 58, 40, 91, 35, 197, 245, 87, 192, 85, 247, 73, 26, 249, 78, 76, 185, 41, 229, 153, 75, 93, 15, 190, 208, 33, 58, 62, 35, 53, 222, 61, 252, 39, 235, 154, 136, 136, 149, 69, 12, 75, 237, 57, 217, 197, 88, 42, 229, 4, 83, 157, 6, 42, 39, 9, 43, 223, 159, 63, 162, 165, 215, 206, 88, 140, 142, 245, 150, 227, 145, 142, 18, 185, 67, 84, 48, 13, 84, 220, 67, 199, 185, 11, 40, 196, 37, 233, 238, 83, 138, 32, 11, 37, 77, 47, 105, 153, 74, 62, 65, 46, 8, 171, 5, 20, 96, 156, 148, 139, 61, 175, 135, 96, 144, 69, 161, 228, 186, 44, 42, 195, 223, 50, 236, 27, 0, 217, 39, 143, 220, 73, 141, 16, 176, 23, 77, 163, 165, 107, 237, 30, 53, 106, 134, 154, 176, 106, 85, 13, 169, 28, 163, 23, 76, 46, 91, 170, 167, 213, 56, 223, 84, 53, 3, 97, 221, 25, 155, 182, 41, 160, 64, 140, 174, 156, 18, 165, 104, 18, 179, 166, 194, 74, 142, 175, 251, 105, 172, 224, 171, 152, 99, 227, 105, 9, 49, 75, 29, 113, 171, 205, 161, 88, 251, 110, 84, 226, 188, 103, 34, 228, 25, 157, 207, 55, 95, 212, 233, 93, 215, 77, 218, 89, 44, 238, 50, 219, 91, 239, 94, 72, 14, 152, 177, 102, 11, 91, 56, 210, 214, 239, 14, 1, 27, 94, 53, 194, 239, 177, 92, 47, 169, 24, 193, 17, 7, 84, 84, 136, 72, 64, 239, 179, 157, 226, 194, 19, 179, 67, 7, 207, 5, 227, 158, 29, 208, 221, 74, 111, 147, 100, 93, 19, 105, 54, 155, 254, 110, 76, 232, 69, 47, 218, 196, 162, 174, 27, 187, 39, 35, 63, 104, 238, 25, 218, 172, 211, 67, 89, 236, 229, 9, 248, 159, 212, 254, 79, 12, 251, 158, 46, 204, 178, 26, 72, 74, 15, 165, 180, 179, 143, 35, 51, 191, 62, 236, 161, 72, 8, 217, 141, 174, 236, 116, 81, 54, 152, 239, 243, 46, 25, 53, 21, 184, 59, 191, 178, 87, 32, 226, 191, 114, 94, 227, 54, 36, 11, 175, 190, 188, 91, 217, 137, 194, 77, 52, 24, 83, 210, 101, 231, 176, 165, 86, 241, 22, 27, 208, 70, 76, 11, 201, 78, 44, 75, 62, 135, 161, 90, 164, 121, 51, 32, 103, 39, 231, 156, 119, 30, 178, 6, 51, 94, 3, 31, 85, 190, 59, 193, 6, 35, 219, 99, 252, 88, 216, 68, 1, 19, 254, 38, 247, 154, 110, 77, 162, 187, 175, 119, 156, 239, 14, 245, 91, 188, 94, 163, 17, 37, 187, 60, 85, 186, 169, 202, 253, 41, 24, 83, 207, 241, 17, 254, 204, 15, 240, 208, 114, 213, 166, 113, 246, 124, 34, 227, 19, 224, 8, 251, 96, 208, 165, 163, 212, 109, 97, 15, 113, 154, 64, 53, 249, 212, 104, 194, 241, 217, 165, 14, 136, 19, 3, 82, 242, 225, 101, 26, 172, 243, 215, 162, 223, 240, 1, 232, 232, 209, 215, 249, 106, 103, 220, 75, 161, 105, 17, 71, 222, 82, 212, 159, 155, 86, 198, 94, 46, 73, 222, 181, 204, 55, 121, 12, 82, 242, 96, 249, 171, 171, 102, 9, 11, 29, 223, 23, 165, 26, 97, 184, 165, 20, 86, 201, 93, 221, 41, 240, 15, 107, 2, 169, 208, 148, 136, 173, 219, 43, 165, 207, 174, 108, 80, 227, 235, 167, 115, 158, 123, 53, 162, 93, 241, 157, 35, 183, 137, 182, 30, 248, 108, 210, 23, 102, 200, 54, 242, 157, 182, 43, 205, 211, 217, 1, 82, 67, 56, 234, 43, 112, 156, 55, 7, 195, 33, 226, 33, 48, 99, 7, 191, 178, 126, 254, 85, 102, 28, 15, 203, 182, 17, 7, 47, 248, 51, 206, 96, 225, 234, 249, 72, 233, 157, 176, 221, 205, 26, 189, 86, 19, 144, 213, 90, 13, 21, 208, 206, 192, 97, 227, 234, 96, 101, 78, 41, 171, 102, 46, 31, 221, 192, 52, 121, 45, 230, 68, 32, 65, 154, 0, 57, 23, 176, 187, 158, 163, 91, 51, 41, 26, 97, 183, 206, 185, 223, 224, 111, 105, 18, 33, 94, 166, 33, 163, 226, 217, 48, 215, 243, 94, 188, 102, 2, 190, 208, 169, 251, 254, 32, 231, 107, 64, 168, 189, 8, 91, 154, 43, 122, 184, 195, 44, 93, 247, 210, 13, 26, 42, 225, 57, 176, 34, 97, 194, 54, 125, 204, 93, 117, 181, 64, 24, 181, 241, 25, 5, 13, 182, 244, 187, 92, 88, 250, 101, 116, 178, 58, 19, 117, 8, 60, 3, 58, 174, 216, 194, 107, 244, 94, 12, 160, 197, 52, 32, 216, 229, 153, 12, 235, 96, 198, 191, 66, 37, 0, 98, 44, 6, 219, 238, 118, 3, 237, 53, 208, 206, 148, 77, 198, 184, 98, 238, 124, 219, 110, 13, 155, 13, 74, 95, 103, 236, 188, 174, 31, 107, 99, 241, 103, 124, 173, 44, 229, 1, 162, 215, 62, 230, 14, 19, 103, 176, 101, 48, 61, 63, 22, 16, 158, 22, 87, 219, 64, 239, 244, 229, 210, 83, 93, 237, 158, 181, 88, 163, 88, 196, 86, 223, 87, 173, 70, 38, 71, 207, 111, 168, 159, 122, 117, 10, 87, 114, 0, 58, 120, 221, 230, 1, 78, 225, 255, 153, 187, 248, 195, 54, 80, 87, 201, 98, 55, 122, 194, 228, 166, 155, 112, 118, 241, 112, 89, 104, 89, 14, 184, 36, 230, 153, 209, 159, 72, 253, 17, 6, 100, 86, 152, 172, 66, 12, 88, 192, 175, 46, 77, 181, 82, 39, 226, 211, 76, 93, 6, 108, 173, 182, 195, 30, 171, 229, 9, 250, 39, 113, 235, 11, 191, 149, 237, 227, 25, 165, 227, 125, 37, 11, 59, 33, 0, 54, 205, 132, 246, 63, 0, 220, 2, 11, 230, 73, 161, 137, 249, 63, 238, 196, 158, 138, 192, 195, 231, 231, 176, 237, 23, 160, 202, 151, 107, 242, 253, 33, 57, 36, 189, 81, 79, 39, 232, 180, 27, 252, 18, 249, 83, 65, 143, 93, 162, 78, 171, 156, 29, 68, 218, 34, 217, 188, 85, 220, 58, 29, 240, 195, 150, 191, 219, 248, 61, 241, 8, 255, 85, 251, 254, 56, 199, 80, 72, 25, 188, 162, 221, 202, 214, 237, 188, 141, 26, 214, 214, 236, 189, 171, 76, 79, 55, 247, 223, 212, 242, 241, 246, 234, 141, 191, 161, 62, 109, 162, 87, 252, 244, 16, 85, 28, 173, 45, 94, 50, 21, 52, 20, 155, 234, 69, 71, 31, 191, 9, 240, 5, 180, 137, 59, 211, 229, 45, 32, 37, 69, 27, 140, 43, 150, 157, 255, 250, 68, 173, 249, 151, 236, 94, 57, 218, 145, 76, 83, 239, 53, 33, 188, 83, 85, 9, 105, 151, 160, 179, 82, 13, 182, 137, 220, 174, 228, 178, 75, 156, 44, 161, 57, 139, 242, 243, 147, 78, 95, 54, 63, 94, 159, 42, 200, 212, 146, 60, 48, 203, 200, 165, 236, 248, 232, 220, 232, 190, 252, 29, 71, 196, 108, 234, 162, 30, 204, 175, 162, 20, 188, 241, 211, 168, 207, 236, 17, 84, 103, 160, 98, 224, 169, 17, 18, 51, 254, 98, 222, 41, 159, 13, 222, 244, 111, 8, 74, 141, 158, 31, 212, 191, 254, 187, 65, 116, 6, 224, 225, 184, 150, 197, 9, 15, 155, 238, 97, 245, 242, 32, 234, 105, 207, 255, 77, 16, 76, 31, 42, 233, 210, 217, 106, 51, 147, 154, 97, 157, 192, 32, 239, 84, 80, 52, 250, 85, 11, 203, 33, 67, 172, 212, 245, 35, 59, 98, 237, 238, 218, 75, 234, 207, 250, 176, 72, 147, 169, 59, 67, 8, 154, 35, 95, 182, 176, 61, 253, 137, 182, 221, 99, 124, 241, 34, 156, 181, 230, 68, 230, 178, 93, 96, 217, 163, 251, 179, 164, 176, 44, 101, 116, 73, 105, 124, 107, 77, 43, 213, 238, 14, 59, 10, 79, 243, 162, 6, 29, 76, 209, 9, 24, 109, 17, 210, 126, 170, 158, 233, 231, 247, 90, 157, 244, 64, 64, 247, 157, 238, 206, 217, 207, 45, 10, 182, 160, 158, 5, 13, 15, 10, 198, 55, 6, 63, 174, 3, 32, 67, 220, 177, 48, 21, 44, 43, 67, 148, 207, 97, 199, 11, 2, 60, 15, 92, 200, 148, 250, 25, 28, 133, 223, 51, 104, 230, 140, 216, 80, 242, 189, 185, 45, 234, 91, 157, 185, 14, 70, 225, 170, 52, 62, 191, 47, 165, 137, 255, 177, 65, 1, 253, 9, 152, 235, 156, 163, 236, 80, 213, 221, 201, 206, 242, 161, 38, 170, 150, 218, 45, 158, 20, 175, 159, 11, 224, 161, 243, 240, 18, 191, 33, 251, 221, 25, 217, 155, 176, 219, 1, 158, 201, 40, 32, 152, 17, 246, 158, 170, 193, 44, 82, 198, 158, 170, 13, 221, 102, 2, 244, 177, 239, 11, 225, 178, 194, 6, 149, 99, 8, 198, 221, 53, 63, 43, 255, 72, 232, 231, 254, 20, 240, 211, 57, 29, 173, 4, 70, 254, 31, 203, 7, 6, 108, 96, 213, 77, 23, 34, 238, 43, 203, 238, 243, 207, 93, 22, 246, 154, 198, 26, 186, 62, 249, 100, 67, 224, 163, 193, 224, 161, 72, 230, 17, 161, 217, 73, 78, 12, 124, 172, 36, 33, 205, 158, 78, 171, 60, 19, 118, 250, 201, 101, 79, 231, 105, 247, 228, 186, 158, 193, 185, 192, 148, 242, 187, 38, 139, 217, 187, 108, 211, 227, 74, 177, 34, 97, 190, 140, 1, 209, 177, 179, 44, 225, 157, 44, 97, 244, 205, 238, 99, 91, 207, 119, 47, 222, 191, 79, 57, 25, 195, 42, 144, 138, 39, 250, 241, 79, 56, 185, 7, 196, 229, 168, 227, 88, 73, 241, 8, 191, 48, 204, 28, 174, 151, 79, 4, 225, 52, 207, 52, 49, 50, 243, 225, 197, 42, 88, 214, 236, 57, 12, 220, 224, 228, 222, 104, 26, 218, 159, 207, 141, 253, 0, 42, 98, 223, 44, 21, 123, 180, 253, 44, 10, 182, 179, 71, 55, 222, 0, 11, 70, 43, 104, 6, 83, 103, 75, 22, 214, 119, 57, 193, 167, 16, 254, 229, 244, 141, 217, 40, 186, 93, 36, 72, 12, 95, 51, 61, 72, 7, 87, 159, 215, 82, 63, 5, 174, 255, 14, 87, 250, 5, 12, 167, 212, 181, 87, 75, 66, 203, 77, 82, 0, 76, 6, 90, 38, 191, 250, 14, 20, 237, 86, 225, 5, 35, 188, 77, 215, 118, 34, 12, 120, 181, 234, 237, 228, 102, 123, 27, 222, 3, 60, 163, 155, 76, 169, 91, 110, 79, 97, 5, 220, 80, 40, 88, 56, 13, 82, 70, 24, 252, 106, 139, 61, 237, 148, 36, 122, 157, 12, 37, 51, 51, 14, 90, 28, 98, 42, 155, 33, 99, 116, 209, 173, 146, 50, 86, 201, 104, 182, 191, 136, 208, 76, 164, 252, 23, 165, 84, 95, 153, 28, 172, 171, 41, 90, 204, 242, 72, 210, 45, 45, 205, 150, 159, 247, 223, 55, 8, 240, 21, 239, 41, 103, 251, 86, 47, 205, 71, 41, 1, 84, 242, 187, 254, 171, 46, 226, 142, 106, 59, 80, 185, 193, 47, 227, 24, 71, 95, 4, 243, 152, 58, 65, 174, 206, 200, 19, 97, 253, 214, 215, 94, 196, 62, 197, 6, 210, 226, 12, 50, 3, 251, 85, 86, 151, 181, 201, 227, 114, 95, 126, 72, 97, 223, 165, 0, 11, 93, 190, 202, 201, 107, 137, 27, 135, 27, 120, 17, 58, 200, 86, 186, 116, 82, 192, 18, 188, 210, 193, 3, 205, 17, 219, 33, 179, 20, 206, 169, 67, 212, 71, 36, 225, 177, 176, 109, 76, 103, 30, 43, 190, 148, 28, 61, 243, 206, 227, 216, 158, 36, 109, 137, 190, 68, 214, 168, 34, 162, 191, 149, 199, 206, 210, 37, 173, 5, 190, 18, 9, 14, 1, 16, 40, 82, 19, 240, 212, 157, 11, 235, 194, 191, 165, 251, 169, 66, 141, 19, 236, 254, 183, 143, 43, 251, 220, 157, 223, 201, 27, 149, 250, 90, 183, 140, 169, 204, 153, 249, 249, 238, 62, 75, 199, 97, 165, 70, 201, 17, 207, 208, 198, 2, 157, 39, 171, 3, 178, 215, 206, 106, 27, 150, 78, 99, 209, 2, 55, 230, 208, 164, 192, 171, 46, 112, 69, 42, 167, 122, 1, 205, 38, 251, 10, 180, 69, 223, 113, 98, 216, 61, 53, 167, 43, 198, 94, 43, 153, 70, 112, 87, 44, 254, 27, 30, 187, 156, 223, 150, 243, 78, 194, 94, 234, 189, 185, 63, 192, 193, 246, 32, 206, 241, 52, 86, 207, 53, 186, 138, 73, 118, 238, 198, 91, 44, 247, 44, 38, 242, 82, 0, 6, 83, 32, 23, 219, 118, 243, 106, 232, 95, 202, 49, 226, 239, 88, 123, 64, 46, 239, 215, 239, 246, 177, 251, 50, 27, 12, 70, 161, 25, 195, 245, 87, 203, 48, 208, 98, 13, 238, 61, 87, 192, 235, 114, 119, 37, 233, 159, 40, 186, 201, 78, 107, 251, 2, 192, 27, 149, 94, 177, 81, 191, 53, 51, 45, 94, 60, 221, 174, 115, 73, 224, 222, 96, 171, 118, 34, 169, 50, 62, 191, 212, 229, 197, 117, 175, 121, 15, 96, 254, 213, 62, 104, 50, 243, 218, 198, 2, 70, 52, 255, 233, 245, 111, 30, 182, 26, 95, 79, 151, 10, 158, 209, 240, 193, 195, 212, 18, 224, 157, 252, 73, 162, 47, 62, 51, 115, 227, 162, 92, 19, 190, 8, 93, 177, 9, 214, 149, 131, 22, 39, 188, 250, 198, 33, 82, 250, 6, 144, 89, 60, 218, 170, 248, 106, 30, 55, 240, 153, 87, 11, 134, 67, 90, 74, 166, 62, 159, 49, 94, 211, 174, 137, 19, 203, 44, 117, 242, 93, 30, 215, 16, 59, 152, 249, 249, 226, 32, 247, 245, 207, 69, 10, 152, 45, 153, 54, 40, 148, 176, 19, 210, 174, 233, 212, 166, 50, 8, 159, 27, 57, 11, 140, 253, 216, 251, 80, 61, 174, 91, 160, 95, 255, 215, 12, 162, 194, 140, 137, 229, 51, 92, 129, 50, 143, 106, 141, 163, 175, 215, 144, 74, 59, 142, 23, 83, 61, 96, 135, 143, 141, 94, 26, 189, 160, 100, 242, 26, 173, 186, 98, 80, 30, 233, 213, 186, 42, 89, 79, 34, 2, 6, 184, 64, 34, 134, 112, 228, 172, 245, 60, 250, 86, 146, 23, 89, 188, 41, 89, 28, 236, 53, 214, 178, 25, 134, 10, 7, 228, 45, 55, 180, 112, 151, 228, 172, 206, 22, 101, 195, 11, 98, 251, 112, 101, 210, 51, 173, 247, 112, 248, 56, 38, 184, 20, 111, 29, 107, 255, 109, 117, 224, 157, 176, 215, 31, 189, 115, 185, 179, 183, 85, 110, 23, 105, 241, 10, 101, 239, 203, 69, 18, 222, 208, 72, 24, 206, 39, 94, 238, 83, 193, 81, 36, 238, 19, 223, 204, 217, 28, 161, 237, 201, 166, 118, 234, 171, 94, 68, 151, 245, 38, 12, 243, 71, 155, 181, 230, 94, 99, 55, 199, 59, 58, 191, 235, 11, 177, 203, 109, 8, 192, 239, 154, 28, 35, 156, 117, 207, 182, 186, 102, 235, 252, 53, 42, 109, 199, 111, 30, 66, 9, 174, 2, 74, 72, 67, 83, 227, 190, 69, 150, 228, 76, 38, 111, 51, 113, 225, 251, 1, 54, 188, 160, 245, 40, 199, 213, 240, 223, 177, 218, 186, 17, 178, 70, 67, 249, 19, 253, 42, 82, 225, 61, 108, 91, 154, 114, 149, 112, 22, 185, 168, 255, 85, 14, 151, 206, 171, 160, 171, 110, 198, 57, 192, 156, 26, 171, 167, 15, 7, 243, 12, 51, 19, 245, 65, 251, 111, 85, 171, 179, 180, 25, 15, 22, 8, 209, 7, 84, 200, 170, 204, 55, 122, 253, 200, 246, 47, 223, 237, 245, 173, 238, 71, 48, 49, 184, 65, 207, 191, 196, 10, 57, 20, 168, 235, 203, 225, 154, 190, 19, 204, 152, 154, 100, 65, 55, 175, 166, 26, 180, 237, 216, 246, 52, 158, 206, 178, 161, 40, 227, 150, 251, 1, 31, 17, 106, 198, 219, 15, 7, 52, 11, 104, 78, 62, 148, 10, 167, 211, 204, 155, 38, 197, 187, 150, 40, 149, 6, 175, 44, 70, 1, 151, 186, 14, 3, 207, 191, 9, 230, 35, 59, 196, 188, 67, 63, 147, 78, 218, 177, 202, 1, 36, 4, 189, 195, 208, 197, 13, 239, 163, 163, 86, 162, 176, 106, 64, 244, 239, 226, 103, 191, 56, 93, 65, 239, 160, 167, 252, 239, 234, 212, 196, 34, 49, 156, 12, 82, 199, 166, 235, 210, 7, 103, 251, 47, 184, 169, 33, 61, 104, 92, 224, 182, 240, 53, 78, 245, 2, 196, 0, 78, 247, 92, 62, 74, 188, 35, 56, 169, 96, 23, 91, 1, 148, 102, 70, 167, 201, 220, 24, 216, 7, 178, 55, 82, 63, 232, 57, 245, 28, 172, 197, 244, 170, 88, 67, 150, 164, 207, 150, 95, 210, 214, 227, 241, 47, 85, 232, 78, 28, 26, 111, 111, 58, 225, 66, 234, 229, 25, 56, 25, 36, 184, 244, 54, 0, 205, 72, 193, 166, 177, 221, 78, 149, 209, 65, 63, 186, 114, 253, 2, 59, 23, 171, 30, 243, 164, 54, 206, 183, 111, 218, 103, 228, 13, 108, 13, 188, 255, 179, 96, 151, 42, 176, 200, 221, 21, 175, 197, 81, 115, 10, 167, 214, 193, 249, 254, 211, 250, 80, 178, 233, 71, 38, 26, 83, 134, 232, 150, 28, 41, 20, 56, 8, 199, 217, 32, 202, 12, 164, 214, 142, 94, 110, 8, 55, 122, 215, 254, 66, 30, 246, 75, 251, 174, 124, 254, 93, 39, 64, 186, 220, 135, 245, 46, 70, 175, 203, 241, 238, 46, 220, 160, 143, 147, 29, 163, 239, 191, 29, 2, 27, 12, 50, 255, 94, 3, 178, 169, 8, 34, 72, 246, 95, 78, 198, 9, 96, 91, 246, 95, 171, 243, 212, 254, 148, 184, 241, 65, 224, 171, 196, 64, 221, 16, 149, 199, 9, 41, 224, 107, 165, 16, 36, 28, 173, 172, 91, 224, 96, 188, 63, 137, 244, 199, 145, 92, 56, 79, 56, 65, 49, 174, 142, 76, 156, 23, 163, 103, 60, 95, 8, 241, 38, 45, 22, 158, 37, 219, 196, 93, 252, 233, 193, 146, 230, 77, 5, 95, 194, 190, 63, 152, 255, 75, 196, 64, 104, 179, 98, 137, 240, 61, 214, 93, 211, 49, 27, 65, 228, 2, 191, 172, 175, 71, 0, 43, 52, 159, 36, 26, 17, 48, 16, 118, 10, 47, 82, 237, 120, 193, 31, 78, 102, 174, 152, 214, 38, 71, 12, 12, 106, 137, 182, 28, 169, 176, 213, 3, 90, 232, 34, 164, 65, 87, 139, 34, 246, 87, 73, 110, 231, 0, 191, 15, 197, 69, 156, 172, 55, 246, 82, 219, 45, 104, 79, 105, 79, 218, 231, 222, 159, 170, 160, 152, 182, 198, 34, 52, 54, 139, 18, 225, 8, 69, 17, 168, 10, 160, 18, 159, 238, 213, 62, 3, 27, 53, 37, 45, 79, 193, 45, 242, 61, 82, 214, 249, 159, 170, 247, 173, 91, 222, 175, 181, 227, 62, 197, 78, 114, 106, 242, 185, 76, 51, 247, 230, 161, 180, 120, 213, 151, 0, 192, 125, 52, 156, 73, 96, 85, 93, 36, 102, 154, 76, 138, 85, 196, 169, 176, 230, 200, 164, 7, 58, 248, 26, 126, 110, 184, 69, 12, 26, 73, 206, 228, 232, 54, 90, 12, 183, 68, 240, 99, 72, 100, 15, 232, 238, 165, 194, 57, 165, 206, 156, 109, 203, 4, 253, 246, 103, 33, 175, 76, 246, 90, 57, 26, 31, 120, 21, 227, 236, 62, 24, 245, 65, 50, 107, 62, 101, 105, 237, 185, 213, 27, 16, 173, 83, 233, 78, 217, 38, 80, 162, 27, 107, 1, 9, 250, 195, 21, 180, 169, 148, 19, 207, 35, 204, 251, 250, 168, 207, 74, 75, 51, 221, 232, 54, 180, 156, 55, 192, 239, 67, 196, 223, 48, 252, 252, 204, 231, 150, 126, 224, 202, 67, 91, 198, 54, 183, 250, 34, 3, 8, 35, 103, 64, 17, 162, 251, 135, 5, 165, 52, 199, 96, 235, 242, 79, 48, 198, 227, 98, 194, 197, 214, 1, 89, 51, 103, 136, 243, 228, 169, 101, 144, 54, 237, 69, 187, 138, 2, 154, 103, 162, 153, 60, 174, 44, 92, 224, 19, 136, 204, 61, 239, 62, 2, 210, 134, 61, 51, 85, 164, 188, 134, 228, 189, 58, 232, 46, 14, 80, 230, 243, 232, 253, 211, 6, 212, 233, 227, 177, 2, 196, 157, 105, 21, 4, 93, 161, 43, 74, 252, 93, 79, 78, 239, 231, 51, 155, 158, 96, 184, 26, 87, 198, 95, 37, 77, 191, 130, 95, 94, 95, 7, 91, 21, 232, 150, 219, 210, 61, 18, 254, 21, 42, 213, 62, 16, 240, 6, 157, 139, 43, 52, 67, 196, 150, 219, 27, 27, 196, 181, 187, 234, 186, 206, 92, 218, 21, 143, 145, 224, 36, 64, 41, 2, 92, 159, 253, 87, 100, 62, 253, 63, 28, 65, 159, 187, 23, 93, 134, 251, 143, 48, 173, 86, 246, 41, 89, 191, 200, 254, 219, 146, 40, 247, 209, 107, 170, 39, 10, 43, 48, 195, 18, 222, 84, 16, 62, 220, 175, 13, 176, 63, 37, 44, 221, 225, 143, 12, 184, 133, 210, 101, 143, 242, 155, 216, 44, 6, 10, 88, 234, 177, 73, 225, 53, 84, 30, 201, 162, 203, 57, 8, 120, 183, 56, 215, 99, 190, 242, 34, 214, 162, 167, 53, 19, 226, 220, 166, 0, 217, 192, 169, 255, 104, 254, 9, 161, 65, 165, 193, 65, 156, 84, 251, 19, 236, 169, 84, 255, 148, 153, 66, 52, 81, 159, 208, 45, 234, 206, 103, 36, 94, 4, 156, 165, 73, 206, 24, 199, 10, 23, 184, 222, 185, 249, 170, 84, 14, 180, 154, 104, 16, 5, 103, 67, 189, 80, 100, 227, 59, 69, 11, 193, 186, 113, 43, 30, 189, 197, 161, 226, 234, 251, 189, 164, 167, 202, 185, 44, 184, 175, 35, 195, 192, 246, 123, 83, 164, 111, 5, 243, 212, 151, 43, 201, 205, 182, 88, 124, 112, 37, 57, 240, 189, 75, 243, 81, 205, 109, 85, 233, 159, 3, 200, 225, 102, 251, 184, 240, 219, 18, 209, 7, 254, 245, 172, 164, 100, 155, 207, 50, 164, 163, 75, 147, 62, 248, 208, 102, 48, 59, 13, 30, 67, 183, 191, 248, 69, 225, 242, 55, 247, 241, 33, 15, 73, 166, 173, 251, 148, 222, 214, 147, 50, 156, 191, 68, 168, 153, 199, 173, 67, 236, 150, 186, 180, 192, 93, 233, 48, 203, 201, 73, 59, 25, 90, 245, 26, 158, 218, 147, 57, 173, 72, 253, 90, 196, 64, 9, 93, 254, 63, 46, 13, 34, 147, 227, 185, 68, 219, 155, 152, 15, 30, 185, 99, 94, 69, 207, 80, 56, 209, 235, 55, 184, 221, 100, 236, 170, 176, 155, 24, 71, 240, 32, 193, 234, 30, 180, 59, 222, 199, 157, 197, 102, 231, 159, 4, 99, 193, 243, 218, 49, 158, 43, 154, 255, 68, 203, 228, 39, 86, 116, 213, 185, 107, 100, 154, 90, 147, 221, 219, 217, 194, 100, 226, 68, 6, 200, 185, 94, 17, 242, 30, 173, 122, 37, 53, 95, 42, 201, 56, 44, 11, 78, 11, 73, 255, 124, 177, 38, 184, 22, 168, 244, 169, 222, 251, 12, 67, 167, 176, 247, 211, 39, 189, 196, 176, 246, 222, 154, 157, 22, 85, 182, 249, 167, 69, 109, 62, 253, 252, 90, 201, 91, 231, 34, 155, 157, 183, 82, 153, 247, 178, 203, 2, 126, 251, 2, 8, 6, 215, 149, 207, 220, 96, 91, 68, 227, 123, 230, 217, 234, 72, 192, 67, 35, 246, 18, 152, 178, 51, 1, 21, 239, 168, 171, 145, 175, 181, 41, 195, 74, 15, 86, 223, 68, 191, 252, 230, 65, 168, 214, 49, 18, 17, 76, 154, 90, 10, 62, 36, 95, 5, 7, 28, 238, 197, 205, 98, 220, 22, 187, 184, 145, 88, 141, 62, 38, 179, 241, 51, 249, 54, 62, 255, 205, 244, 162, 111, 212, 163, 73, 159, 243, 26, 142, 0, 50, 240, 178, 241, 169, 243, 199, 223, 217, 176, 86, 141, 249, 30, 233, 186, 36, 175, 255, 199, 201, 160, 236, 42, 54, 226, 99, 53, 80, 29, 91, 46, 177, 44, 63, 255, 205, 66, 212, 58, 65, 92, 45, 7, 85, 179, 18, 153, 20, 84, 19, 175, 140, 99, 202, 247, 43, 72, 112, 185, 222, 2, 39, 97, 16, 100, 11, 135, 118, 221, 103, 162, 185, 169, 24, 171, 27, 102, 72, 206, 77, 186, 156, 12, 16, 19, 31, 77, 10, 47, 84, 227, 237, 44, 64, 140, 19, 3, 151, 224, 182, 227, 12, 138, 24, 182, 9, 219, 158, 180, 153, 73, 197, 58, 210, 49, 160, 112, 10, 185, 27, 152, 213, 205, 218, 210, 160, 195, 116, 12, 112, 255, 172, 39, 22, 50, 16, 249, 189, 216, 6, 28, 70, 185, 43, 154, 244, 198, 146, 37, 179, 173, 13, 211, 209, 179, 52, 59, 17, 84, 55, 165, 229, 90, 80, 193, 227, 109, 69, 27, 172, 63, 70, 23, 115, 138, 157, 110, 169, 56, 32, 60, 241, 50, 8, 221, 246, 23, 94, 87, 196, 41, 8, 179, 29, 54, 81, 120, 183, 191, 226, 38, 73, 230, 185, 221, 7, 243, 13, 57, 244, 23, 150, 119, 141, 147, 150, 222, 101, 87, 1, 59, 100, 45, 57, 184, 49, 40, 33, 83, 91, 106, 68, 172, 1, 10, 156, 34, 37, 11, 23, 17, 57, 233, 178, 195, 52, 6, 206, 13, 32, 216, 74, 202, 80, 60, 51, 54, 52, 93, 76, 7, 185, 76, 194, 79, 47, 173, 41, 130, 66, 84, 99, 229, 15, 92, 255, 66, 25, 105, 214, 51, 157, 68, 43, 102, 66, 70, 243, 174, 85, 81, 33, 137, 95, 210, 85, 232, 191, 125, 179, 158, 39, 83, 87, 228, 2, 112, 152, 98, 199, 108, 200, 187, 97, 203, 167, 24, 0, 95, 229, 181, 249, 167, 12, 228, 29, 222, 90, 176, 126, 105, 207, 64, 180, 29, 215, 30, 9, 159, 210, 254, 56, 42, 236, 222, 205, 166, 104, 99, 80, 39, 176, 17, 16, 10, 121, 149, 43, 217, 251, 233, 184, 240, 228, 189, 143, 219, 219, 187, 200, 79, 30, 113, 67, 75, 166, 192, 60, 200, 111, 30, 69, 24, 10, 30, 200, 127, 212, 224, 164, 7, 74, 251, 84, 25, 177, 103, 230, 87, 193, 162, 56, 67, 234, 58, 77, 195, 201, 159, 13, 250, 38, 232, 246, 11, 223, 250, 236, 58, 230, 11, 105, 228, 252, 58, 221, 164, 20, 73, 193, 31, 151, 175, 205, 76, 151, 42, 207, 21, 247, 69, 213, 227, 51, 255, 158, 52, 204, 177, 36, 238, 25, 246, 15, 92, 88, 184, 188, 39, 20, 32, 44, 188, 186, 77, 38, 37, 237, 165, 69, 86, 49, 237, 78, 255, 78, 255, 14, 201, 98, 6, 5, 250, 171, 94, 78, 40, 215, 106, 230, 245, 24, 232, 75, 110, 184, 46, 159, 17, 145, 124, 169, 140, 202, 189, 11, 9, 200, 246, 228, 28, 112, 82, 230, 184, 217, 204, 112, 30, 190, 19, 74, 85, 48, 76, 10, 2, 135, 16, 155, 37, 190, 103, 48, 197, 53, 212, 150, 8, 91, 13, 69, 29, 214, 255, 46, 200, 1, 154, 39, 1, 35, 64, 24, 150, 147, 30, 250, 231, 89, 175, 48, 198, 37, 239, 45, 183, 204, 2, 145, 217, 156, 186, 180, 10, 168, 52, 228, 12, 205, 6, 85, 15, 185, 244, 56, 238, 87, 179, 174, 62, 196, 95, 30, 9, 41, 1, 58, 192, 57, 64, 207, 85, 153, 223, 246, 149, 83, 38, 141, 195, 13, 255, 218, 188, 195, 255, 24, 183, 38, 55, 162, 30, 55, 31, 176, 156, 73, 7, 80, 12, 172, 169, 217, 231, 80, 10, 249, 208, 232, 139, 79, 41, 83, 13, 59, 175, 182, 111, 106, 222, 162, 79, 40, 17, 1, 161, 66, 150, 38, 237, 75, 171, 242, 67, 98, 78, 6, 91, 183, 101, 72, 91, 237, 1, 69, 62, 79, 87, 156, 198, 244, 35, 67, 30, 35, 200, 36, 246, 255, 202, 184, 251, 145, 197, 232, 177, 181, 80, 105, 184, 147, 178, 219, 232, 1, 234, 2, 105, 182, 73, 5, 90, 37, 172, 238, 200, 79, 248, 220, 37, 71, 10, 12, 72, 251, 220, 250, 94, 172, 88, 208, 98, 156, 156, 207, 94, 166, 247, 240, 226, 227, 13, 26, 0, 49, 165, 175, 60, 164, 228, 156, 152, 175, 171, 100, 173, 33, 198, 232, 100, 16, 144, 59, 210, 228, 252, 16, 202, 38, 230, 33, 95, 175, 200, 245, 226, 212, 74, 161, 30, 200, 244, 40, 1, 242, 239, 55, 98, 8, 137, 185, 162, 155, 79, 78, 184, 218, 155, 5, 96, 197, 196, 83, 208, 217, 86, 14, 222, 37, 70, 174, 145, 140, 25, 212, 61, 232, 195, 178, 151, 4, 196, 25, 43, 234, 89, 220, 87, 141, 39, 174, 11, 133, 137, 54, 207, 49, 40, 197, 180, 105, 123, 193, 196, 37, 214, 71, 188, 202, 226, 47, 126, 185, 7, 82, 1, 77, 183, 247, 31, 103, 90, 66, 100, 19, 241, 235, 9, 243, 102, 40, 183, 132, 197, 149, 236, 172, 210, 152, 229, 229, 232, 188, 225, 79, 79, 48, 74, 211, 211, 90, 217, 46, 19, 5, 217, 73, 132, 209, 30, 246, 189, 251, 38, 40, 131, 101, 210, 170, 222, 59, 132, 148, 5, 190, 96, 49, 74, 178, 93, 50, 217, 235, 41, 44, 40, 43, 74, 177, 235, 169, 234, 219, 172, 189, 92, 159, 86, 148, 201, 156, 2, 221, 169, 195, 163, 47, 158, 76, 197, 62, 5, 196, 0, 64, 204, 112, 22, 56, 134, 47, 56, 255, 29, 15, 168, 159, 175, 107, 69, 80, 231, 183, 160, 6, 202, 169, 158, 205, 241, 67, 87, 197, 35, 37, 213, 189, 213, 232, 42, 6, 90, 178, 45, 196, 36, 189, 210, 89, 147, 99, 143, 96, 66, 110, 60, 131, 223, 239, 221, 241, 238, 240, 196, 192, 184, 161, 66, 190, 164, 65, 239, 100, 179, 238, 130, 30, 145, 211, 202, 187, 227, 172, 178, 104, 78, 110, 95, 184, 207, 66, 180, 152, 212, 169, 81, 168, 108, 8, 177, 94, 52, 151, 193, 98, 11, 226, 255, 218, 156, 19, 166, 241, 179, 164, 31, 229, 164, 162, 109, 49, 37, 121, 16, 148, 39, 197, 211, 195, 18, 137, 220, 222, 223, 191, 36, 110, 151, 37, 138, 112, 54, 210, 54, 104, 56, 40, 209, 38, 193, 104, 202, 168, 74, 76, 189, 10, 227, 65, 105, 241, 88, 173, 39, 186, 175, 170, 164, 242, 208, 12, 96, 70, 154, 167, 42, 222, 67, 176, 199, 209, 79, 41, 195, 177, 51, 14, 63, 139, 213, 22, 42, 156, 227, 109, 51, 22, 148, 58, 181, 164, 220, 53, 253, 145, 252, 80, 205, 210, 240, 229, 141, 151, 220, 25, 164, 208, 48, 222, 249, 75, 184, 227, 39, 71, 159, 220, 64, 45, 163, 64, 44, 90, 1, 70, 80, 212, 205, 23, 11, 31, 157, 254, 108, 22, 205, 201, 114, 31, 213, 152, 20, 220, 236, 26, 3, 241, 4, 108, 178, 42, 72, 46, 249, 110, 252, 146, 73, 33, 38, 7, 217, 66, 13, 187, 162, 248, 158, 1, 96, 136, 196, 187, 93, 153, 87, 124, 69, 105, 176, 233, 173, 141, 90, 49, 235, 226, 184, 24, 229, 10, 81, 18, 178, 75, 169, 208, 153, 95, 49, 77, 188, 169, 180, 240, 30, 45, 212, 110, 53, 7, 192, 180, 56, 208, 212, 65, 119, 9, 204, 220, 9, 68, 104, 15, 15, 193, 42, 93, 228, 0, 28, 123, 250, 16, 7, 177, 36, 156, 242, 243, 185, 197, 221, 168, 253, 201, 96, 73, 38, 225, 235, 38, 104, 163, 75, 2, 158, 213, 2, 208, 15, 95, 25, 251, 22, 53, 232, 150, 45, 168, 15, 35, 13, 204, 88, 90, 116, 197, 221, 86, 0, 78, 75, 222, 104, 219, 165, 230, 45, 52, 108, 61, 145, 246, 101, 148, 203, 155, 147, 100, 226, 231, 176, 190, 173, 104, 206, 211, 104, 25, 236, 218, 34, 30, 221, 217, 162, 23, 235, 103, 21, 26, 31, 214, 22, 97, 206, 245, 7, 111, 10, 194, 231, 249, 100, 106, 200, 18, 250, 169, 40, 69, 169, 197, 14, 37, 252, 181, 149, 253, 176, 167, 6, 63, 91, 237, 102, 196, 177, 231, 233, 229, 115, 41, 228, 113, 225, 15, 199, 2, 239, 38, 189, 7, 83, 222, 186, 116, 98, 57, 248, 35, 171, 246, 212, 165, 81, 201, 104, 122, 7, 247, 235, 243, 44, 201, 38, 10, 5, 29, 250, 179, 67, 56, 158, 164, 105, 4, 208, 34, 95, 111, 228, 75, 50, 8, 209, 156, 163, 177, 178, 199, 97, 40, 190, 246, 59, 90, 4, 70, 37, 181, 27, 32, 39, 46, 97, 212, 43, 11, 74, 46, 97, 92, 248, 202, 229, 191, 229, 85, 105, 139, 224, 51, 194, 207, 218, 213, 90, 157, 171, 191, 187, 232, 150, 118, 134, 82, 207, 150, 156, 208, 47, 77, 49, 43, 32, 77, 100, 66, 113, 67, 21, 14, 153, 243, 85, 36, 246, 74, 74, 80, 55, 26, 28, 89, 5, 237, 53, 10, 87, 19, 139, 1, 190, 138, 32, 194, 135, 73, 40, 104, 185, 132, 53, 168, 119, 232, 38, 184, 9, 242, 253, 102, 214, 48, 215, 254, 18, 70, 59, 188, 222, 113, 60, 188, 253, 38, 153, 233, 21, 170, 156, 102, 127, 70, 46, 55, 9, 19, 232, 188, 238, 89, 222, 245, 143, 37, 224, 202, 248, 95, 87, 0, 172, 143, 3, 32, 163, 245, 118, 92, 21, 195, 163, 140, 181, 16, 184, 181, 99, 192, 225, 207, 31, 168, 60, 15, 187, 201, 43, 217, 244, 11, 33, 219, 155, 6, 83, 5, 245, 10, 218, 100, 208, 102, 117, 222, 175, 4, 51, 11, 35, 87, 186, 204, 2, 5, 231, 101, 90, 226, 9, 98, 95, 11, 34, 218, 192, 162, 173, 68, 31, 238, 12, 9, 94, 240, 88, 87, 22, 158, 108, 82, 87, 166, 0, 30, 33, 126, 84, 119, 214, 41, 240, 212, 151, 86, 157, 163, 204, 92, 14, 44, 191, 198, 1, 248, 246, 221, 17, 15, 205, 237, 190, 87, 94, 215, 210, 65, 203, 27, 92, 106, 141, 105, 145, 62, 245, 158, 74, 105, 164, 186, 181, 235, 187, 22, 78, 46, 171, 153, 237, 59, 205, 255, 33, 107, 180, 69, 160, 247, 162, 188, 94, 227, 9, 28, 136, 233, 203, 243, 254, 26, 197, 210, 141, 208, 214, 90, 45, 204, 6, 90, 154, 196, 28, 45, 156, 25, 237, 95, 187, 204, 252, 63, 155, 97, 218, 189, 53, 177, 193, 79, 25, 86, 138, 13, 143, 67, 165, 84, 189, 157, 185, 47, 33, 233, 99, 139, 7, 36, 207, 53, 196, 14, 156, 194, 171, 28, 33, 193, 244, 69, 166, 233, 87, 163, 217, 100, 88, 23, 81, 36, 96, 97, 238, 222, 51, 40, 215, 230, 186, 229, 250, 117, 149, 68, 157, 66, 30, 158, 58, 199, 217, 196, 161, 95, 238, 159, 163, 73, 27, 82, 93, 49, 163, 170, 63, 53, 251, 203, 189, 27, 155, 224, 217, 73, 213, 20, 32, 107, 121, 205, 248, 244, 17, 242, 70, 28, 103, 213, 87, 223, 44, 65, 237, 97, 215, 255, 217, 96, 104, 223, 71, 56, 183, 114, 101, 39, 21, 13, 181, 28, 89, 84, 87, 139, 253, 190, 54, 94, 69, 218, 151, 218, 224, 218, 198, 213, 147, 85, 37, 37, 71, 45, 117, 176, 173, 171, 182, 25, 191, 214, 224, 248, 65, 92, 220, 168, 224, 65, 185, 53, 36, 48, 183, 27, 154, 50, 183, 243, 228, 46, 84, 239, 189, 4, 94, 8, 39, 28, 74, 249, 37, 105, 214, 249, 167, 214, 6, 0, 201, 156, 184, 213, 162, 225, 89, 76, 160, 206, 149, 45, 98, 165, 106, 190, 236, 71, 88, 54, 22, 172, 222, 19, 188, 28, 210, 2, 149, 80, 1, 187, 91, 206, 65, 93, 178, 229, 105, 30, 207, 215, 237, 161, 207, 37, 179, 0, 223, 253, 11, 177, 0, 159, 174, 221, 56, 217, 3, 59, 90, 147, 170, 199, 170, 222, 240, 242, 168, 245, 24, 158, 255, 218, 72, 207, 97, 108, 152, 230, 165, 207, 230, 200, 18, 157, 8, 242, 174, 144, 163, 207, 161, 194, 194, 164, 69, 213, 4, 86, 42, 96, 62, 68, 196, 58, 166, 252, 71, 17, 87, 61, 75, 149, 143, 167, 18, 241, 245, 253, 72, 0, 9, 227, 100, 28, 2, 220, 40, 112, 64, 178, 238, 252, 190, 252, 233, 241, 184, 149, 235, 251, 99, 40, 38, 44, 234, 104, 183, 162, 148, 215, 242, 197, 137, 227, 26, 53, 185, 40, 204, 199, 243, 71, 66, 198, 255, 76, 82, 169, 7, 235, 9, 9, 236, 226, 76, 216, 203, 104, 151, 14, 186, 20, 24, 176, 193, 214, 69, 225, 75, 169, 78, 204, 213, 150, 73, 7, 34, 98, 4, 38, 219, 214, 216, 231, 229, 170, 195, 160, 21, 188, 61, 104, 242, 208, 76, 164, 163, 58, 182, 106, 229, 240, 246, 170, 198, 87, 220, 233, 160, 148, 252, 107, 253, 68, 180, 75, 207, 3, 148, 186, 37, 71, 50, 248, 44, 23, 166, 238, 22, 176, 193, 214, 207, 242, 115, 157, 237, 187, 189, 251, 248, 244, 2, 3, 101, 78, 148, 187, 182, 230, 247, 114, 206, 149, 46, 42, 89, 192, 83, 95, 158, 95, 241, 95, 48, 5, 190, 95, 14, 226, 79, 212, 154, 35, 246, 229, 4, 137, 158, 89, 204, 254, 232, 209, 212, 65, 208, 79, 145, 205, 205, 197, 173, 68, 177, 67, 168, 17, 219, 18, 1, 249, 36, 162, 221, 41, 209, 25, 8, 19, 253, 147, 104, 40, 96, 209, 93, 104, 154, 50, 90, 248, 32, 240, 195, 54, 26, 171, 205, 114, 15, 166, 196, 172, 78, 163, 29, 218, 182, 6, 46, 195, 90, 73, 17, 57, 75, 254, 48, 9, 215, 202, 50, 86, 166, 55, 212, 83, 221, 93, 46, 72, 212, 87, 207, 239, 197, 203, 254, 100, 243, 27, 15, 236, 252, 119, 76, 226, 101, 231, 234, 149, 213, 77, 158, 177, 155, 184, 89, 221, 89, 8, 71, 72, 28, 166, 15, 205, 163, 225, 164, 71, 200, 100, 244, 220, 169, 50, 253, 33, 244, 234, 158, 192, 2, 241, 230, 84, 150, 142, 144, 208, 113, 214, 165, 168, 103, 88, 167, 15, 7, 90, 204, 77, 84, 180, 111, 234, 175, 188, 169, 71, 39, 222, 161, 208, 185, 226, 169, 222, 173, 166, 242, 217, 71, 154, 150, 182, 80, 152, 183, 67, 255, 188, 174, 174, 41, 86, 165, 33, 28, 215, 184, 243, 57, 95, 13, 125, 204, 104, 72, 236, 55, 86, 252, 29, 129, 119, 166, 34, 59, 168, 230, 30, 185, 25, 250, 88, 182, 5, 67, 180, 4, 74, 20, 92, 106, 43, 62, 247, 221, 66, 168, 156, 85, 193, 86, 70, 17, 158, 228, 0, 234, 227, 13, 46, 183, 150, 228, 178, 87, 180, 31, 57, 110, 46, 220, 172, 2, 173, 68, 237, 169, 227, 2, 10, 144, 186, 22, 200, 155, 230, 8, 110, 133, 214, 241, 109, 204, 237, 195, 150, 226, 214, 23, 210, 234, 212, 47, 217, 238, 11, 67, 155, 207, 32, 108, 3, 130, 144, 16, 63, 109, 82, 25, 86, 113, 242, 111, 13, 92, 67, 140, 143, 218, 219, 243, 7, 209, 34, 243, 97, 38, 188, 144, 215, 76, 117, 36, 153, 69, 206, 208, 143, 77, 255, 175, 176, 232, 172, 200, 224, 81, 166, 101, 10, 99, 187, 254, 119, 5, 171, 48, 158, 36, 177, 17, 162, 106, 8, 233, 87, 102, 87, 24, 101, 116, 6, 152, 189, 232, 255, 229, 100, 5, 24, 202, 18, 5, 194, 144, 33, 63, 13, 204, 51, 167, 254, 188, 179, 197, 225, 142, 222, 15, 6, 225, 89, 169, 1, 157, 159, 27, 13, 98, 26, 99, 146, 161, 141, 193, 19, 38, 141, 115, 90, 198, 167, 169, 179, 173, 254, 189, 230, 103, 54, 102, 183, 221, 23, 154, 133, 31, 40, 242, 2, 241, 155, 208, 170, 160, 118, 11, 64, 207, 222, 203, 173, 190, 76, 53, 22, 2, 110, 165, 196, 223, 58, 123, 207, 99, 82, 198, 233, 226, 116, 187, 60, 229, 47, 247, 29, 66, 81, 78, 164, 47, 183, 233, 24, 224, 2, 107, 182, 33, 239, 162, 186, 101, 93, 105, 119, 183, 234, 35, 245, 232, 232, 15, 26, 32, 160, 212, 71, 198, 50, 53, 189, 63, 45, 222, 201, 0, 89, 30, 188, 34, 250, 34, 66, 251, 65, 58, 38, 175, 75, 113, 183, 245, 205, 70, 40, 185, 91, 182, 77, 238, 218, 190, 175, 27, 25, 169, 178, 152, 46, 48, 165, 4, 150, 86, 86, 38, 99, 85, 87, 7, 224, 184, 220, 27, 177, 204, 238, 25, 65, 252, 0, 0, 0, 0, 0, 0, 0, 0, 0, 0, 0, 0, 0, 0, 0, 0, 0, 0, 0, 0, 0, 0, 0, 0, 0, 0, 0, 0, 0, 0, 0, 0, 0, 0, 0, 0, 0, 0, 0, 0, 0, 0, 0, 0, 0, 0, 0, 0, 0, 0, 0, 0, 0, 0, 0, 0, 0, 0, 0, 0, 0, 0, 0, 0, 0, 0, 0, 0, 0, 0, 0, 0, 0, 0, 0, 0, 0, 0, 0, 0, 0, 0, 0, 0, 0, 0, 0, 0, 0, 0, 0, 0, 0, 0, 0, 0, 0, 0, 0, 0, 0, 0, 0, 0, 0, 0, 0, 0, 0, 0, 0, 0, 0, 0, 0, 0, 0, 0, 0, 0, 0, 0, 0, 0, 0;
